#ifndef HEART_MODEL_H
#define HEART_MODEL_H

const unsigned int heart_model_dim1 = 3512;

const unsigned char heart_model[3512] = {
    0x1c, 0x00, 0x00, 0x00, 0x54, 0x46, 0x4c, 0x33, 0x14, 0x00, 0x20, 0x00, 
    0x1c, 0x00, 0x18, 0x00, 0x14, 0x00, 0x10, 0x00, 0x0c, 0x00, 0x00, 0x00, 
    0x08, 0x00, 0x04, 0x00, 0x14, 0x00, 0x00, 0x00, 0x1c, 0x00, 0x00, 0x00, 
    0x8c, 0x00, 0x00, 0x00, 0xe4, 0x00, 0x00, 0x00, 0x44, 0x07, 0x00, 0x00, 
    0x54, 0x07, 0x00, 0x00, 0x64, 0x0d, 0x00, 0x00, 0x03, 0x00, 0x00, 0x00, 
    0x01, 0x00, 0x00, 0x00, 0x10, 0x00, 0x00, 0x00, 0x00, 0x00, 0x0a, 0x00, 
    0x10, 0x00, 0x0c, 0x00, 0x08, 0x00, 0x04, 0x00, 0x0a, 0x00, 0x00, 0x00, 
    0x0c, 0x00, 0x00, 0x00, 0x1c, 0x00, 0x00, 0x00, 0x38, 0x00, 0x00, 0x00, 
    0x0f, 0x00, 0x00, 0x00, 0x73, 0x65, 0x72, 0x76, 0x69, 0x6e, 0x67, 0x5f, 
    0x64, 0x65, 0x66, 0x61, 0x75, 0x6c, 0x74, 0x00, 0x01, 0x00, 0x00, 0x00, 
    0x04, 0x00, 0x00, 0x00, 0x9c, 0xff, 0xff, 0xff, 0x0c, 0x00, 0x00, 0x00, 
    0x04, 0x00, 0x00, 0x00, 0x07, 0x00, 0x00, 0x00, 0x64, 0x65, 0x6e, 0x73, 
    0x65, 0x5f, 0x33, 0x00, 0x01, 0x00, 0x00, 0x00, 0x04, 0x00, 0x00, 0x00, 
    0x66, 0xf9, 0xff, 0xff, 0x04, 0x00, 0x00, 0x00, 0x07, 0x00, 0x00, 0x00, 
    0x69, 0x6e, 0x70, 0x75, 0x74, 0x5f, 0x31, 0x00, 0x02, 0x00, 0x00, 0x00, 
    0x34, 0x00, 0x00, 0x00, 0x04, 0x00, 0x00, 0x00, 0xdc, 0xff, 0xff, 0xff, 
    0x0f, 0x00, 0x00, 0x00, 0x04, 0x00, 0x00, 0x00, 0x13, 0x00, 0x00, 0x00, 
    0x43, 0x4f, 0x4e, 0x56, 0x45, 0x52, 0x53, 0x49, 0x4f, 0x4e, 0x5f, 0x4d, 
    0x45, 0x54, 0x41, 0x44, 0x41, 0x54, 0x41, 0x00, 0x08, 0x00, 0x0c, 0x00, 
    0x08, 0x00, 0x04, 0x00, 0x08, 0x00, 0x00, 0x00, 0x0e, 0x00, 0x00, 0x00, 
    0x04, 0x00, 0x00, 0x00, 0x13, 0x00, 0x00, 0x00, 0x6d, 0x69, 0x6e, 0x5f, 
    0x72, 0x75, 0x6e, 0x74, 0x69, 0x6d, 0x65, 0x5f, 0x76, 0x65, 0x72, 0x73, 
    0x69, 0x6f, 0x6e, 0x00, 0x10, 0x00, 0x00, 0x00, 0x5c, 0x06, 0x00, 0x00, 
    0x54, 0x06, 0x00, 0x00, 0x24, 0x06, 0x00, 0x00, 0xcc, 0x05, 0x00, 0x00, 
    0xb8, 0x05, 0x00, 0x00, 0x68, 0x05, 0x00, 0x00, 0x18, 0x05, 0x00, 0x00, 
    0x08, 0x03, 0x00, 0x00, 0xf8, 0x00, 0x00, 0x00, 0xa8, 0x00, 0x00, 0x00, 
    0xa0, 0x00, 0x00, 0x00, 0x98, 0x00, 0x00, 0x00, 0x90, 0x00, 0x00, 0x00, 
    0x88, 0x00, 0x00, 0x00, 0x68, 0x00, 0x00, 0x00, 0x04, 0x00, 0x00, 0x00, 
    0x1a, 0xfa, 0xff, 0xff, 0x04, 0x00, 0x00, 0x00, 0x54, 0x00, 0x00, 0x00, 
    0x0c, 0x00, 0x00, 0x00, 0x08, 0x00, 0x0e, 0x00, 0x08, 0x00, 0x04, 0x00, 
    0x08, 0x00, 0x00, 0x00, 0x10, 0x00, 0x00, 0x00, 0x24, 0x00, 0x00, 0x00, 
    0x00, 0x00, 0x06, 0x00, 0x08, 0x00, 0x04, 0x00, 0x06, 0x00, 0x00, 0x00, 
    0x04, 0x00, 0x00, 0x00, 0x00, 0x00, 0x00, 0x00, 0x00, 0x00, 0x0a, 0x00, 
    0x10, 0x00, 0x0c, 0x00, 0x08, 0x00, 0x04, 0x00, 0x0a, 0x00, 0x00, 0x00, 
    0x02, 0x00, 0x00, 0x00, 0x02, 0x00, 0x00, 0x00, 0x04, 0x00, 0x00, 0x00, 
    0x06, 0x00, 0x00, 0x00, 0x32, 0x2e, 0x31, 0x32, 0x2e, 0x30, 0x00, 0x00, 
    0x7a, 0xfa, 0xff, 0xff, 0x04, 0x00, 0x00, 0x00, 0x10, 0x00, 0x00, 0x00, 
    0x31, 0x2e, 0x35, 0x2e, 0x30, 0x00, 0x00, 0x00, 0x00, 0x00, 0x00, 0x00, 
    0x00, 0x00, 0x00, 0x00, 0x68, 0xf4, 0xff, 0xff, 0x6c, 0xf4, 0xff, 0xff, 
    0x70, 0xf4, 0xff, 0xff, 0x74, 0xf4, 0xff, 0xff, 0xa6, 0xfa, 0xff, 0xff, 
    0x04, 0x00, 0x00, 0x00, 0x40, 0x00, 0x00, 0x00, 0x7f, 0xff, 0x13, 0xbc, 
    0xa2, 0x02, 0x9f, 0x3a, 0x14, 0x5c, 0x8a, 0xbc, 0xad, 0x11, 0xc4, 0xba, 
    0x34, 0x4e, 0x7f, 0xbe, 0x9d, 0x57, 0x27, 0xbf, 0x33, 0xf6, 0x8a, 0xbb, 
    0x06, 0xd4, 0x6b, 0xbc, 0xe6, 0x35, 0xd4, 0xbc, 0xaf, 0xfe, 0xb6, 0xbb, 
    0xf7, 0x25, 0x94, 0xbb, 0x49, 0x64, 0xdb, 0x3b, 0xb1, 0x71, 0x7d, 0x3c, 
    0x3d, 0x8e, 0xd4, 0xbd, 0x32, 0x84, 0x6c, 0xbc, 0x76, 0x94, 0x0f, 0x3f, 
    0xf2, 0xfa, 0xff, 0xff, 0x04, 0x00, 0x00, 0x00, 0x00, 0x02, 0x00, 0x00, 
    0x38, 0x15, 0x82, 0xbe, 0xe6, 0x51, 0x95, 0x3d, 0x34, 0x50, 0x83, 0xbe, 
    0x78, 0xa0, 0xb0, 0xbe, 0x83, 0x00, 0x20, 0xbe, 0xf7, 0x0a, 0xc9, 0xbe, 
    0xad, 0x03, 0x03, 0x3e, 0xda, 0x73, 0x16, 0xbe, 0x20, 0xde, 0x48, 0x3d, 
    0x06, 0xbd, 0x36, 0xbf, 0x10, 0x57, 0xe1, 0x3d, 0x1b, 0x1e, 0xa9, 0xbe, 
    0x09, 0x98, 0x53, 0x3b, 0x7d, 0x49, 0xb0, 0x3e, 0x56, 0x66, 0xa3, 0xbe, 
    0x2a, 0x03, 0x50, 0xbc, 0x88, 0xd8, 0xde, 0x3e, 0xcf, 0xaf, 0xa7, 0x3b, 
    0x47, 0x1e, 0x08, 0xbe, 0x95, 0x07, 0x81, 0x3c, 0x5e, 0x7e, 0x7e, 0x3b, 
    0xb8, 0x8b, 0x2a, 0xbf, 0xf9, 0x6b, 0x6c, 0xbe, 0xb0, 0x6a, 0x97, 0x3b, 
    0x84, 0xef, 0xdb, 0xbe, 0xcb, 0xb8, 0xd1, 0xbe, 0x8d, 0xc9, 0x0b, 0x3e, 
    0x00, 0xa5, 0x29, 0x3e, 0xf3, 0x18, 0x0f, 0x3b, 0x2d, 0x57, 0xa4, 0x3c, 
    0xf0, 0xa7, 0x95, 0x3d, 0x70, 0xa1, 0x3f, 0x3c, 0x14, 0x0a, 0x89, 0x3e, 
    0xe8, 0xc7, 0xaa, 0xbe, 0xec, 0x18, 0xa6, 0xbe, 0x90, 0xcd, 0x09, 0x3e, 
    0x28, 0xaa, 0x4d, 0xbe, 0x30, 0x9e, 0xd8, 0xbd, 0x40, 0xd9, 0x17, 0xbe, 
    0xf4, 0x40, 0x9b, 0xbe, 0xb8, 0xc0, 0x59, 0x3e, 0x93, 0x06, 0xb4, 0x3e, 
    0x13, 0xf8, 0xa5, 0x3e, 0x6f, 0x20, 0xc2, 0x3e, 0x5a, 0xb7, 0x06, 0xbe, 
    0xd6, 0x49, 0x93, 0x3d, 0x6a, 0xbb, 0x7d, 0xbd, 0x4f, 0x14, 0x76, 0x3f, 
    0x98, 0xaf, 0xe9, 0x3e, 0x28, 0x2c, 0x3f, 0x3e, 0x92, 0x6e, 0xa8, 0xbe, 
    0x8e, 0xc7, 0x98, 0x3d, 0x8e, 0x34, 0xc5, 0xbc, 0x0c, 0xb8, 0x3f, 0xbe, 
    0x1f, 0x86, 0x33, 0x3e, 0x35, 0x86, 0x83, 0xbc, 0xf8, 0x08, 0x69, 0x3e, 
    0x2e, 0xc6, 0x6f, 0xbf, 0x00, 0xa3, 0x03, 0x3e, 0x9f, 0xe5, 0x89, 0xbd, 
    0x4d, 0x61, 0xa1, 0x3c, 0x5c, 0x08, 0xf4, 0xbe, 0xa9, 0x75, 0x86, 0xbd, 
    0xb1, 0x49, 0x3d, 0x3d, 0xf0, 0x0e, 0x38, 0xbe, 0x3d, 0x74, 0xae, 0xbf, 
    0xae, 0x3a, 0xef, 0x3e, 0xe0, 0xc8, 0xdb, 0x3d, 0x36, 0x8d, 0x74, 0x3c, 
    0xe4, 0xe7, 0xa0, 0x3e, 0x0d, 0xbd, 0xdf, 0x3d, 0x5c, 0x41, 0xa0, 0x3d, 
    0xf0, 0x52, 0x8e, 0x3d, 0x3d, 0xaf, 0xb2, 0x3d, 0x0a, 0x04, 0x42, 0x3b, 
    0x9f, 0x01, 0xa3, 0x3e, 0x65, 0xa0, 0xe1, 0xbb, 0x95, 0x45, 0x01, 0x3d, 
    0x79, 0x50, 0xe3, 0x3e, 0xd5, 0xb9, 0x2b, 0xbb, 0x74, 0x8d, 0xe4, 0xbe, 
    0x7b, 0x05, 0xd8, 0x3d, 0xb1, 0x6f, 0x29, 0x3e, 0xec, 0x35, 0x9f, 0x3e, 
    0xa9, 0x20, 0x04, 0xbe, 0x33, 0x52, 0x59, 0xbf, 0x61, 0x22, 0xb8, 0x3e, 
    0xd8, 0xc7, 0x88, 0xbe, 0xd8, 0x1a, 0xc1, 0xbe, 0xca, 0xa2, 0x1a, 0xbe, 
    0x90, 0xc9, 0xf0, 0x3e, 0x7c, 0xfc, 0xc6, 0x3d, 0x06, 0xaf, 0xea, 0xbe, 
    0xcd, 0xf8, 0xca, 0x3e, 0xb6, 0xfd, 0x70, 0xbe, 0xf7, 0x9e, 0x3d, 0x3b, 
    0x18, 0x19, 0xf6, 0x3e, 0x55, 0x87, 0xce, 0xbd, 0x18, 0xac, 0xf8, 0xbe, 
    0x21, 0x75, 0xa5, 0xbe, 0xd8, 0x0f, 0x05, 0x3c, 0xc0, 0x9d, 0x79, 0x3e, 
    0x2a, 0xaf, 0xa3, 0x3e, 0x14, 0xd3, 0xa2, 0xbc, 0x50, 0xed, 0x25, 0x3e, 
    0x48, 0x24, 0xf3, 0x3d, 0x60, 0x0b, 0x5c, 0x3e, 0x79, 0xfd, 0xa8, 0x3e, 
    0x65, 0xd3, 0x3c, 0xbd, 0x24, 0x85, 0xe8, 0x3e, 0x27, 0x40, 0x41, 0xbe, 
    0x98, 0xa7, 0xda, 0xbe, 0x78, 0x39, 0x96, 0x3e, 0x25, 0xbc, 0xe7, 0xbe, 
    0x50, 0x58, 0xe5, 0xbd, 0x33, 0x37, 0xc2, 0xbe, 0x54, 0xd8, 0x95, 0x3c, 
    0xbc, 0xd4, 0xa2, 0x3e, 0x47, 0x90, 0xe1, 0xbe, 0xa8, 0xab, 0xba, 0x3c, 
    0xd0, 0xe0, 0x3a, 0xbe, 0x8d, 0x85, 0xa7, 0x3e, 0x84, 0x93, 0x25, 0xbe, 
    0x7c, 0x48, 0x37, 0x3e, 0x0c, 0x20, 0x65, 0x3f, 0x2b, 0xe9, 0x36, 0x3f, 
    0xe6, 0xe3, 0x3b, 0x3e, 0xd3, 0x9c, 0x42, 0xb9, 0xfe, 0xfc, 0xff, 0xff, 
    0x04, 0x00, 0x00, 0x00, 0x00, 0x02, 0x00, 0x00, 0xe4, 0x75, 0x8d, 0x3e, 
    0xc0, 0x19, 0x29, 0xbe, 0x54, 0x6a, 0xca, 0xbe, 0x50, 0xad, 0x32, 0xbe, 
    0xc0, 0xb9, 0xea, 0xbc, 0x90, 0x31, 0xc7, 0xbd, 0x40, 0xbf, 0x63, 0xbd, 
    0x00, 0xd8, 0x0d, 0x3e, 0xf0, 0x07, 0xb3, 0xbe, 0x80, 0x2a, 0xdd, 0x3d, 
    0x00, 0x67, 0xb8, 0x3c, 0x9c, 0xe8, 0xc0, 0xbe, 0x40, 0xe2, 0xb9, 0x3c, 
    0x10, 0x84, 0x2b, 0x3e, 0xb4, 0xee, 0x83, 0xbe, 0xa8, 0xd8, 0xb1, 0xbe, 
    0xe8, 0xff, 0x84, 0xbd, 0x68, 0x1c, 0xc4, 0x3e, 0x9f, 0xa0, 0xcf, 0xbe, 
    0x08, 0xed, 0x9f, 0x3d, 0x5c, 0xd4, 0x8a, 0x3b, 0x39, 0x05, 0x5e, 0xbe, 
    0x89, 0xe5, 0x62, 0x3e, 0xff, 0x11, 0x02, 0x3e, 0x04, 0x75, 0x73, 0x3c, 
    0x03, 0x3b, 0xf9, 0xbe, 0x21, 0x6a, 0x3e, 0xbc, 0xe8, 0x27, 0xaa, 0x3e, 
    0xe7, 0x32, 0x03, 0xbe, 0x24, 0x96, 0x8c, 0x3e, 0xe1, 0x8b, 0x36, 0x3d, 
    0xff, 0x8e, 0x15, 0xbd, 0x20, 0xe7, 0x58, 0xbe, 0x2d, 0x6a, 0x0c, 0x3e, 
    0xad, 0xec, 0x0b, 0xbe, 0x80, 0x4e, 0xcd, 0x3c, 0x00, 0x68, 0x8c, 0xbe, 
    0x90, 0x48, 0xca, 0xbd, 0xfe, 0xea, 0x13, 0x3e, 0x13, 0x45, 0x6c, 0x3d, 
    0xcd, 0x09, 0x15, 0xbe, 0x00, 0x98, 0xd2, 0x3c, 0xeb, 0x9a, 0x98, 0x3e, 
    0xa8, 0x24, 0x92, 0x3e, 0x7c, 0xfb, 0xc3, 0xbe, 0x0f, 0xf1, 0xa0, 0x3e, 
    0x65, 0xe0, 0x21, 0x3e, 0x60, 0x27, 0xc2, 0x3e, 0x4c, 0xa1, 0xfc, 0xbe, 
    0x47, 0x51, 0x7c, 0x3e, 0x24, 0xf7, 0x76, 0x3e, 0xc0, 0x1c, 0x63, 0xbe, 
    0xe8, 0x54, 0x10, 0x3e, 0xb0, 0x0c, 0xd8, 0xbe, 0xd4, 0x3b, 0x20, 0xbd, 
    0x15, 0x3a, 0xdb, 0xbe, 0xad, 0xff, 0xdb, 0xbe, 0x68, 0x0e, 0x40, 0xbe, 
    0x6d, 0x9d, 0x38, 0x3e, 0x9c, 0xe6, 0xcc, 0x3e, 0xee, 0x7a, 0x8a, 0x3e, 
    0x54, 0xfb, 0xd8, 0x3d, 0xbc, 0xbb, 0x85, 0x3e, 0xf0, 0x7e, 0x81, 0xbe, 
    0xb0, 0xda, 0x0d, 0xbf, 0xa4, 0xbb, 0x9f, 0xbe, 0xe0, 0xa5, 0xd4, 0x3b, 
    0xb2, 0x0b, 0x9d, 0x3a, 0xca, 0x7a, 0x9a, 0xbf, 0xa6, 0xf5, 0x4b, 0x3d, 
    0x2b, 0xcb, 0x10, 0x3c, 0x22, 0x05, 0x61, 0x3b, 0x05, 0x71, 0xb5, 0x3f, 
    0x4c, 0x34, 0xfb, 0xbd, 0x1d, 0xc1, 0x5a, 0x3e, 0x83, 0xab, 0x92, 0xbe, 
    0x49, 0x54, 0x5f, 0x3b, 0x36, 0x10, 0xb9, 0xbe, 0x51, 0x3b, 0xae, 0xbb, 
    0x3f, 0x46, 0xe0, 0x3d, 0x67, 0xfc, 0xf5, 0x3e, 0xd8, 0xc0, 0x04, 0x3e, 
    0xcf, 0x83, 0x11, 0xbf, 0xa7, 0x39, 0xba, 0xbd, 0x66, 0x2c, 0x09, 0xbf, 
    0xfe, 0x5b, 0xc8, 0x3e, 0x60, 0x02, 0xfc, 0xbe, 0x12, 0x06, 0x6d, 0xbe, 
    0xb1, 0xcf, 0xca, 0xbc, 0x64, 0xe9, 0x62, 0x3e, 0xbe, 0x50, 0xc2, 0xbf, 
    0x5a, 0xfe, 0x27, 0xbe, 0x96, 0x36, 0xd7, 0x3e, 0xa8, 0x0b, 0x9d, 0x3e, 
    0x36, 0xc9, 0xf6, 0x3d, 0x7c, 0xbf, 0x8a, 0xbe, 0x72, 0x4c, 0xba, 0x3e, 
    0xa1, 0xbc, 0xb6, 0x3e, 0xb3, 0x76, 0x7f, 0x3e, 0xc3, 0x70, 0xfb, 0xbe, 
    0xb7, 0xa4, 0xae, 0x3e, 0xa8, 0x10, 0x9a, 0x3e, 0xd7, 0x32, 0x50, 0xbf, 
    0xc3, 0x59, 0x48, 0x3e, 0xda, 0x90, 0xbb, 0xbd, 0x77, 0x8c, 0x8e, 0xbe, 
    0xe6, 0x57, 0xe6, 0x3e, 0x74, 0xab, 0x6b, 0x3f, 0x75, 0x62, 0x5d, 0xbf, 
    0xfc, 0x7c, 0xe1, 0x3e, 0xe2, 0xe5, 0x86, 0xbd, 0x73, 0x04, 0x7b, 0x3d, 
    0x72, 0x4c, 0xda, 0xbd, 0x31, 0x2f, 0x94, 0x3e, 0x8c, 0x3e, 0x51, 0xc0, 
    0x22, 0xc6, 0x2c, 0x3f, 0xb3, 0x70, 0x70, 0x3f, 0xd4, 0x9d, 0x99, 0x3d, 
    0x80, 0x16, 0xec, 0xbd, 0x2f, 0x5c, 0xea, 0xbe, 0x99, 0xca, 0x16, 0x3e, 
    0xee, 0x8a, 0xc8, 0x3b, 0x85, 0x84, 0x88, 0x3d, 0x3d, 0xba, 0x0b, 0xbe, 
    0x07, 0x28, 0xcf, 0xbf, 0xcd, 0x52, 0x08, 0x3d, 0xbf, 0xdd, 0x5a, 0x3f, 
    0xf1, 0x6e, 0x80, 0x3e, 0x0a, 0xff, 0xff, 0xff, 0x04, 0x00, 0x00, 0x00, 
    0x40, 0x00, 0x00, 0x00, 0x89, 0xb2, 0x00, 0xbd, 0x6c, 0x33, 0xba, 0xbb, 
    0x80, 0x34, 0x21, 0x3d, 0x40, 0xe4, 0x4f, 0xbf, 0x8f, 0x29, 0x8e, 0xbf, 
    0x8d, 0xd7, 0xce, 0x3b, 0x23, 0xcd, 0x15, 0x3d, 0x2e, 0x61, 0xb8, 0x3c, 
    0xe7, 0xe3, 0xb3, 0x3f, 0x66, 0xbb, 0x36, 0xbc, 0xe9, 0x20, 0x01, 0x3d, 
    0x0c, 0x47, 0xaa, 0xbd, 0x5b, 0xff, 0xf8, 0x3c, 0x05, 0xef, 0x49, 0xbc, 
    0xc9, 0x43, 0x5f, 0x3c, 0x28, 0xb4, 0xff, 0x3b, 0x56, 0xff, 0xff, 0xff, 
    0x04, 0x00, 0x00, 0x00, 0x40, 0x00, 0x00, 0x00, 0x57, 0xf9, 0x41, 0xbe, 
    0xe3, 0x40, 0x18, 0xbd, 0x7f, 0x68, 0xd2, 0xbe, 0x4a, 0x0f, 0x1a, 0x3f, 
    0xc6, 0x96, 0x48, 0x3f, 0x37, 0xf8, 0x8c, 0xbd, 0x50, 0xc3, 0xd0, 0xbe, 
    0x71, 0xe4, 0x5e, 0xbe, 0x85, 0xe9, 0x7d, 0xbf, 0x85, 0xa2, 0x4f, 0xbd, 
    0x3f, 0xab, 0xdf, 0xbe, 0x48, 0xf3, 0xca, 0xbe, 0x8c, 0x9f, 0xa7, 0xbe, 
    0xfa, 0x2d, 0x9a, 0xbd, 0xf7, 0x67, 0x3b, 0xbe, 0xa2, 0xae, 0x66, 0xbe, 
    0xa2, 0xff, 0xff, 0xff, 0x04, 0x00, 0x00, 0x00, 0x04, 0x00, 0x00, 0x00, 
    0xf4, 0x81, 0x22, 0x3f, 0xb2, 0xff, 0xff, 0xff, 0x04, 0x00, 0x00, 0x00, 
    0x40, 0x00, 0x00, 0x00, 0xbe, 0xb1, 0xbe, 0xbd, 0xe0, 0xe3, 0x03, 0xbe, 
    0x49, 0x85, 0xa5, 0xbd, 0xf3, 0x54, 0x56, 0xbe, 0x00, 0x00, 0x00, 0x00, 
    0x22, 0xd4, 0xad, 0xbd, 0xb0, 0xdd, 0x13, 0xbe, 0xc0, 0x97, 0xf6, 0xbe, 
    0x5d, 0x9f, 0x28, 0xbf, 0x8e, 0x03, 0x2d, 0xbe, 0x1d, 0xf9, 0x2a, 0xbe, 
    0x35, 0x90, 0x72, 0xbe, 0x7f, 0x5f, 0x7b, 0xbe, 0x7a, 0x30, 0x24, 0xbe, 
    0x0f, 0x72, 0xd4, 0xbe, 0xf5, 0xe1, 0x01, 0x3e, 0x00, 0x00, 0x06, 0x00, 
    0x08, 0x00, 0x04, 0x00, 0x06, 0x00, 0x00, 0x00, 0x04, 0x00, 0x00, 0x00, 
    0x20, 0x00, 0x00, 0x00, 0x00, 0x00, 0x00, 0x00, 0xa0, 0xc2, 0x0a, 0xbf, 
    0x79, 0x1a, 0xbb, 0xbc, 0xba, 0xa8, 0x10, 0xbe, 0x0f, 0x22, 0xbf, 0xb9, 
    0x00, 0x3c, 0x0a, 0xbe, 0x53, 0x96, 0x53, 0xbe, 0x7c, 0x53, 0x8e, 0x3d, 
    0x04, 0xfa, 0xff, 0xff, 0x08, 0xfa, 0xff, 0xff, 0x0f, 0x00, 0x00, 0x00, 
    0x4d, 0x4c, 0x49, 0x52, 0x20, 0x43, 0x6f, 0x6e, 0x76, 0x65, 0x72, 0x74, 
    0x65, 0x64, 0x2e, 0x00, 0x01, 0x00, 0x00, 0x00, 0x14, 0x00, 0x00, 0x00, 
    0x00, 0x00, 0x0e, 0x00, 0x18, 0x00, 0x14, 0x00, 0x10, 0x00, 0x0c, 0x00, 
    0x08, 0x00, 0x04, 0x00, 0x0e, 0x00, 0x00, 0x00, 0x14, 0x00, 0x00, 0x00, 
    0x1c, 0x00, 0x00, 0x00, 0x10, 0x01, 0x00, 0x00, 0x14, 0x01, 0x00, 0x00, 
    0x18, 0x01, 0x00, 0x00, 0x04, 0x00, 0x00, 0x00, 0x6d, 0x61, 0x69, 0x6e, 
    0x00, 0x00, 0x00, 0x00, 0x04, 0x00, 0x00, 0x00, 0xb8, 0x00, 0x00, 0x00, 
    0x70, 0x00, 0x00, 0x00, 0x38, 0x00, 0x00, 0x00, 0x04, 0x00, 0x00, 0x00, 
    0x66, 0xff, 0xff, 0xff, 0x10, 0x00, 0x00, 0x00, 0x00, 0x00, 0x00, 0x08, 
    0x0c, 0x00, 0x00, 0x00, 0x10, 0x00, 0x00, 0x00, 0x84, 0xfa, 0xff, 0xff, 
    0x01, 0x00, 0x00, 0x00, 0x0c, 0x00, 0x00, 0x00, 0x03, 0x00, 0x00, 0x00, 
    0x0b, 0x00, 0x00, 0x00, 0x08, 0x00, 0x00, 0x00, 0x03, 0x00, 0x00, 0x00, 
    0x96, 0xff, 0xff, 0xff, 0x10, 0x00, 0x00, 0x00, 0x00, 0x00, 0x00, 0x08, 
    0x10, 0x00, 0x00, 0x00, 0x14, 0x00, 0x00, 0x00, 0x86, 0xff, 0xff, 0xff, 
    0x00, 0x00, 0x00, 0x01, 0x01, 0x00, 0x00, 0x00, 0x0b, 0x00, 0x00, 0x00, 
    0x03, 0x00, 0x00, 0x00, 0x0a, 0x00, 0x00, 0x00, 0x07, 0x00, 0x00, 0x00, 
    0x02, 0x00, 0x00, 0x00, 0xca, 0xff, 0xff, 0xff, 0x10, 0x00, 0x00, 0x00, 
    0x00, 0x00, 0x00, 0x08, 0x10, 0x00, 0x00, 0x00, 0x14, 0x00, 0x00, 0x00, 
    0xba, 0xff, 0xff, 0xff, 0x00, 0x00, 0x00, 0x01, 0x01, 0x00, 0x00, 0x00, 
    0x0a, 0x00, 0x00, 0x00, 0x03, 0x00, 0x00, 0x00, 0x09, 0x00, 0x00, 0x00, 
    0x06, 0x00, 0x00, 0x00, 0x01, 0x00, 0x00, 0x00, 0x00, 0x00, 0x0e, 0x00, 
    0x16, 0x00, 0x00, 0x00, 0x10, 0x00, 0x0c, 0x00, 0x0b, 0x00, 0x04, 0x00, 
    0x0e, 0x00, 0x00, 0x00, 0x18, 0x00, 0x00, 0x00, 0x00, 0x00, 0x00, 0x08, 
    0x18, 0x00, 0x00, 0x00, 0x1c, 0x00, 0x00, 0x00, 0x00, 0x00, 0x06, 0x00, 
    0x08, 0x00, 0x07, 0x00, 0x06, 0x00, 0x00, 0x00, 0x00, 0x00, 0x00, 0x01, 
    0x01, 0x00, 0x00, 0x00, 0x09, 0x00, 0x00, 0x00, 0x03, 0x00, 0x00, 0x00, 
    0x00, 0x00, 0x00, 0x00, 0x05, 0x00, 0x00, 0x00, 0x04, 0x00, 0x00, 0x00, 
    0x01, 0x00, 0x00, 0x00, 0x0c, 0x00, 0x00, 0x00, 0x01, 0x00, 0x00, 0x00, 
    0x00, 0x00, 0x00, 0x00, 0x0d, 0x00, 0x00, 0x00, 0x70, 0x04, 0x00, 0x00, 
    0x04, 0x04, 0x00, 0x00, 0x98, 0x03, 0x00, 0x00, 0x44, 0x03, 0x00, 0x00, 
    0xf4, 0x02, 0x00, 0x00, 0xb0, 0x02, 0x00, 0x00, 0x68, 0x02, 0x00, 0x00, 
    0x20, 0x02, 0x00, 0x00, 0xd8, 0x01, 0x00, 0x00, 0x60, 0x01, 0x00, 0x00, 
    0xe0, 0x00, 0x00, 0x00, 0x60, 0x00, 0x00, 0x00, 0x04, 0x00, 0x00, 0x00, 
    0xda, 0xfb, 0xff, 0xff, 0x00, 0x00, 0x00, 0x01, 0x14, 0x00, 0x00, 0x00, 
    0x1c, 0x00, 0x00, 0x00, 0x1c, 0x00, 0x00, 0x00, 0x0d, 0x00, 0x00, 0x00, 
    0x34, 0x00, 0x00, 0x00, 0x02, 0x00, 0x00, 0x00, 0xff, 0xff, 0xff, 0xff, 
    0x01, 0x00, 0x00, 0x00, 0xc4, 0xfb, 0xff, 0xff, 0x19, 0x00, 0x00, 0x00, 
    0x53, 0x74, 0x61, 0x74, 0x65, 0x66, 0x75, 0x6c, 0x50, 0x61, 0x72, 0x74, 
    0x69, 0x74, 0x69, 0x6f, 0x6e, 0x65, 0x64, 0x43, 0x61, 0x6c, 0x6c, 0x3a, 
    0x30, 0x00, 0x00, 0x00, 0x02, 0x00, 0x00, 0x00, 0x01, 0x00, 0x00, 0x00, 
    0x01, 0x00, 0x00, 0x00, 0x32, 0xfc, 0xff, 0xff, 0x00, 0x00, 0x00, 0x01, 
    0x14, 0x00, 0x00, 0x00, 0x1c, 0x00, 0x00, 0x00, 0x1c, 0x00, 0x00, 0x00, 
    0x0c, 0x00, 0x00, 0x00, 0x58, 0x00, 0x00, 0x00, 0x02, 0x00, 0x00, 0x00, 
    0xff, 0xff, 0xff, 0xff, 0x10, 0x00, 0x00, 0x00, 0x1c, 0xfc, 0xff, 0xff, 
    0x3d, 0x00, 0x00, 0x00, 0x6d, 0x6f, 0x64, 0x65, 0x6c, 0x2f, 0x64, 0x65, 
    0x6e, 0x73, 0x65, 0x5f, 0x32, 0x2f, 0x4d, 0x61, 0x74, 0x4d, 0x75, 0x6c, 
    0x3b, 0x6d, 0x6f, 0x64, 0x65, 0x6c, 0x2f, 0x64, 0x65, 0x6e, 0x73, 0x65, 
    0x5f, 0x32, 0x2f, 0x52, 0x65, 0x6c, 0x75, 0x3b, 0x6d, 0x6f, 0x64, 0x65, 
    0x6c, 0x2f, 0x64, 0x65, 0x6e, 0x73, 0x65, 0x5f, 0x32, 0x2f, 0x42, 0x69, 
    0x61, 0x73, 0x41, 0x64, 0x64, 0x00, 0x00, 0x00, 0x02, 0x00, 0x00, 0x00, 
    0x01, 0x00, 0x00, 0x00, 0x10, 0x00, 0x00, 0x00, 0xae, 0xfc, 0xff, 0xff, 
    0x00, 0x00, 0x00, 0x01, 0x14, 0x00, 0x00, 0x00, 0x1c, 0x00, 0x00, 0x00, 
    0x1c, 0x00, 0x00, 0x00, 0x0b, 0x00, 0x00, 0x00, 0x58, 0x00, 0x00, 0x00, 
    0x02, 0x00, 0x00, 0x00, 0xff, 0xff, 0xff, 0xff, 0x08, 0x00, 0x00, 0x00, 
    0x98, 0xfc, 0xff, 0xff, 0x3d, 0x00, 0x00, 0x00, 0x6d, 0x6f, 0x64, 0x65, 
    0x6c, 0x2f, 0x64, 0x65, 0x6e, 0x73, 0x65, 0x5f, 0x31, 0x2f, 0x4d, 0x61, 
    0x74, 0x4d, 0x75, 0x6c, 0x3b, 0x6d, 0x6f, 0x64, 0x65, 0x6c, 0x2f, 0x64, 
    0x65, 0x6e, 0x73, 0x65, 0x5f, 0x31, 0x2f, 0x52, 0x65, 0x6c, 0x75, 0x3b, 
    0x6d, 0x6f, 0x64, 0x65, 0x6c, 0x2f, 0x64, 0x65, 0x6e, 0x73, 0x65, 0x5f, 
    0x31, 0x2f, 0x42, 0x69, 0x61, 0x73, 0x41, 0x64, 0x64, 0x00, 0x00, 0x00, 
    0x02, 0x00, 0x00, 0x00, 0x01, 0x00, 0x00, 0x00, 0x08, 0x00, 0x00, 0x00, 
    0x2a, 0xfd, 0xff, 0xff, 0x00, 0x00, 0x00, 0x01, 0x14, 0x00, 0x00, 0x00, 
    0x1c, 0x00, 0x00, 0x00, 0x1c, 0x00, 0x00, 0x00, 0x0a, 0x00, 0x00, 0x00, 
    0x50, 0x00, 0x00, 0x00, 0x02, 0x00, 0x00, 0x00, 0xff, 0xff, 0xff, 0xff, 
    0x10, 0x00, 0x00, 0x00, 0x14, 0xfd, 0xff, 0xff, 0x37, 0x00, 0x00, 0x00, 
    0x6d, 0x6f, 0x64, 0x65, 0x6c, 0x2f, 0x64, 0x65, 0x6e, 0x73, 0x65, 0x2f, 
    0x4d, 0x61, 0x74, 0x4d, 0x75, 0x6c, 0x3b, 0x6d, 0x6f, 0x64, 0x65, 0x6c, 
    0x2f, 0x64, 0x65, 0x6e, 0x73, 0x65, 0x2f, 0x52, 0x65, 0x6c, 0x75, 0x3b, 
    0x6d, 0x6f, 0x64, 0x65, 0x6c, 0x2f, 0x64, 0x65, 0x6e, 0x73, 0x65, 0x2f, 
    0x42, 0x69, 0x61, 0x73, 0x41, 0x64, 0x64, 0x00, 0x02, 0x00, 0x00, 0x00, 
    0x01, 0x00, 0x00, 0x00, 0x10, 0x00, 0x00, 0x00, 0x06, 0xfe, 0xff, 0xff, 
    0x00, 0x00, 0x00, 0x01, 0x10, 0x00, 0x00, 0x00, 0x10, 0x00, 0x00, 0x00, 
    0x09, 0x00, 0x00, 0x00, 0x24, 0x00, 0x00, 0x00, 0x78, 0xfd, 0xff, 0xff, 
    0x14, 0x00, 0x00, 0x00, 0x6d, 0x6f, 0x64, 0x65, 0x6c, 0x2f, 0x64, 0x65, 
    0x6e, 0x73, 0x65, 0x5f, 0x33, 0x2f, 0x4d, 0x61, 0x74, 0x4d, 0x75, 0x6c, 
    0x00, 0x00, 0x00, 0x00, 0x02, 0x00, 0x00, 0x00, 0x01, 0x00, 0x00, 0x00, 
    0x10, 0x00, 0x00, 0x00, 0x4a, 0xfe, 0xff, 0xff, 0x00, 0x00, 0x00, 0x01, 
    0x10, 0x00, 0x00, 0x00, 0x10, 0x00, 0x00, 0x00, 0x08, 0x00, 0x00, 0x00, 
    0x24, 0x00, 0x00, 0x00, 0xbc, 0xfd, 0xff, 0xff, 0x14, 0x00, 0x00, 0x00, 
    0x6d, 0x6f, 0x64, 0x65, 0x6c, 0x2f, 0x64, 0x65, 0x6e, 0x73, 0x65, 0x5f, 
    0x32, 0x2f, 0x4d, 0x61, 0x74, 0x4d, 0x75, 0x6c, 0x00, 0x00, 0x00, 0x00, 
    0x02, 0x00, 0x00, 0x00, 0x10, 0x00, 0x00, 0x00, 0x08, 0x00, 0x00, 0x00, 
    0x8e, 0xfe, 0xff, 0xff, 0x00, 0x00, 0x00, 0x01, 0x10, 0x00, 0x00, 0x00, 
    0x10, 0x00, 0x00, 0x00, 0x07, 0x00, 0x00, 0x00, 0x24, 0x00, 0x00, 0x00, 
    0x00, 0xfe, 0xff, 0xff, 0x14, 0x00, 0x00, 0x00, 0x6d, 0x6f, 0x64, 0x65, 
    0x6c, 0x2f, 0x64, 0x65, 0x6e, 0x73, 0x65, 0x5f, 0x31, 0x2f, 0x4d, 0x61, 
    0x74, 0x4d, 0x75, 0x6c, 0x00, 0x00, 0x00, 0x00, 0x02, 0x00, 0x00, 0x00, 
    0x08, 0x00, 0x00, 0x00, 0x10, 0x00, 0x00, 0x00, 0xd2, 0xfe, 0xff, 0xff, 
    0x00, 0x00, 0x00, 0x01, 0x10, 0x00, 0x00, 0x00, 0x10, 0x00, 0x00, 0x00, 
    0x06, 0x00, 0x00, 0x00, 0x20, 0x00, 0x00, 0x00, 0x44, 0xfe, 0xff, 0xff, 
    0x12, 0x00, 0x00, 0x00, 0x6d, 0x6f, 0x64, 0x65, 0x6c, 0x2f, 0x64, 0x65, 
    0x6e, 0x73, 0x65, 0x2f, 0x4d, 0x61, 0x74, 0x4d, 0x75, 0x6c, 0x00, 0x00, 
    0x02, 0x00, 0x00, 0x00, 0x10, 0x00, 0x00, 0x00, 0x01, 0x00, 0x00, 0x00, 
    0x12, 0xff, 0xff, 0xff, 0x00, 0x00, 0x00, 0x01, 0x10, 0x00, 0x00, 0x00, 
    0x10, 0x00, 0x00, 0x00, 0x05, 0x00, 0x00, 0x00, 0x30, 0x00, 0x00, 0x00, 
    0x84, 0xfe, 0xff, 0xff, 0x22, 0x00, 0x00, 0x00, 0x6d, 0x6f, 0x64, 0x65, 
    0x6c, 0x2f, 0x64, 0x65, 0x6e, 0x73, 0x65, 0x2f, 0x42, 0x69, 0x61, 0x73, 
    0x41, 0x64, 0x64, 0x2f, 0x52, 0x65, 0x61, 0x64, 0x56, 0x61, 0x72, 0x69, 
    0x61, 0x62, 0x6c, 0x65, 0x4f, 0x70, 0x00, 0x00, 0x01, 0x00, 0x00, 0x00, 
    0x10, 0x00, 0x00, 0x00, 0x5e, 0xff, 0xff, 0xff, 0x00, 0x00, 0x00, 0x01, 
    0x10, 0x00, 0x00, 0x00, 0x10, 0x00, 0x00, 0x00, 0x04, 0x00, 0x00, 0x00, 
    0x34, 0x00, 0x00, 0x00, 0xd0, 0xfe, 0xff, 0xff, 0x24, 0x00, 0x00, 0x00, 
    0x6d, 0x6f, 0x64, 0x65, 0x6c, 0x2f, 0x64, 0x65, 0x6e, 0x73, 0x65, 0x5f, 
    0x33, 0x2f, 0x42, 0x69, 0x61, 0x73, 0x41, 0x64, 0x64, 0x2f, 0x52, 0x65, 
    0x61, 0x64, 0x56, 0x61, 0x72, 0x69, 0x61, 0x62, 0x6c, 0x65, 0x4f, 0x70, 
    0x00, 0x00, 0x00, 0x00, 0x01, 0x00, 0x00, 0x00, 0x01, 0x00, 0x00, 0x00, 
    0xae, 0xff, 0xff, 0xff, 0x00, 0x00, 0x00, 0x01, 0x10, 0x00, 0x00, 0x00, 
    0x10, 0x00, 0x00, 0x00, 0x03, 0x00, 0x00, 0x00, 0x34, 0x00, 0x00, 0x00, 
    0x20, 0xff, 0xff, 0xff, 0x24, 0x00, 0x00, 0x00, 0x6d, 0x6f, 0x64, 0x65, 
    0x6c, 0x2f, 0x64, 0x65, 0x6e, 0x73, 0x65, 0x5f, 0x32, 0x2f, 0x42, 0x69, 
    0x61, 0x73, 0x41, 0x64, 0x64, 0x2f, 0x52, 0x65, 0x61, 0x64, 0x56, 0x61, 
    0x72, 0x69, 0x61, 0x62, 0x6c, 0x65, 0x4f, 0x70, 0x00, 0x00, 0x00, 0x00, 
    0x01, 0x00, 0x00, 0x00, 0x10, 0x00, 0x00, 0x00, 0x00, 0x00, 0x16, 0x00, 
    0x18, 0x00, 0x14, 0x00, 0x00, 0x00, 0x10, 0x00, 0x0c, 0x00, 0x08, 0x00, 
    0x00, 0x00, 0x00, 0x00, 0x00, 0x00, 0x07, 0x00, 0x16, 0x00, 0x00, 0x00, 
    0x00, 0x00, 0x00, 0x01, 0x10, 0x00, 0x00, 0x00, 0x10, 0x00, 0x00, 0x00, 
    0x02, 0x00, 0x00, 0x00, 0x34, 0x00, 0x00, 0x00, 0x88, 0xff, 0xff, 0xff, 
    0x24, 0x00, 0x00, 0x00, 0x6d, 0x6f, 0x64, 0x65, 0x6c, 0x2f, 0x64, 0x65, 
    0x6e, 0x73, 0x65, 0x5f, 0x31, 0x2f, 0x42, 0x69, 0x61, 0x73, 0x41, 0x64, 
    0x64, 0x2f, 0x52, 0x65, 0x61, 0x64, 0x56, 0x61, 0x72, 0x69, 0x61, 0x62, 
    0x6c, 0x65, 0x4f, 0x70, 0x00, 0x00, 0x00, 0x00, 0x01, 0x00, 0x00, 0x00, 
    0x08, 0x00, 0x00, 0x00, 0x00, 0x00, 0x16, 0x00, 0x1c, 0x00, 0x18, 0x00, 
    0x00, 0x00, 0x14, 0x00, 0x10, 0x00, 0x0c, 0x00, 0x00, 0x00, 0x00, 0x00, 
    0x08, 0x00, 0x07, 0x00, 0x16, 0x00, 0x00, 0x00, 0x00, 0x00, 0x00, 0x01, 
    0x14, 0x00, 0x00, 0x00, 0x20, 0x00, 0x00, 0x00, 0x20, 0x00, 0x00, 0x00, 
    0x01, 0x00, 0x00, 0x00, 0x38, 0x00, 0x00, 0x00, 0x02, 0x00, 0x00, 0x00, 
    0xff, 0xff, 0xff, 0xff, 0x01, 0x00, 0x00, 0x00, 0x04, 0x00, 0x04, 0x00, 
    0x04, 0x00, 0x00, 0x00, 0x19, 0x00, 0x00, 0x00, 0x73, 0x65, 0x72, 0x76, 
    0x69, 0x6e, 0x67, 0x5f, 0x64, 0x65, 0x66, 0x61, 0x75, 0x6c, 0x74, 0x5f, 
    0x69, 0x6e, 0x70, 0x75, 0x74, 0x5f, 0x31, 0x3a, 0x30, 0x00, 0x00, 0x00, 
    0x02, 0x00, 0x00, 0x00, 0x01, 0x00, 0x00, 0x00, 0x01, 0x00, 0x00, 0x00, 
    0x01, 0x00, 0x00, 0x00, 0x10, 0x00, 0x00, 0x00, 0x0c, 0x00, 0x0c, 0x00, 
    0x0b, 0x00, 0x00, 0x00, 0x00, 0x00, 0x04, 0x00, 0x0c, 0x00, 0x00, 0x00, 
    0x09, 0x00, 0x00, 0x00, 0x00, 0x00, 0x00, 0x09
};

#endif //HEART_MODEL_H